<unk>	0
<s>	0
</s>	0
<DIALECT=AA-NDONGA>	0
<DIALECT=AA-KWAMBI>	0
<DIALECT=AA-MBALANHU>	0
<DIALECT=AA-KWALUUDHI>	0
<DIALECT=AA-KWANYAMA>	0
<DIALECT=AA-NGANDJERA>	0
<DIALECT=AA-MBANDJA>	0
<CUR>	0
<REV>	0
<0x00>	0
<0x01>	0
<0x02>	0
<0x03>	0
<0x04>	0
<0x05>	0
<0x06>	0
<0x07>	0
<0x08>	0
<0x09>	0
<0x0A>	0
<0x0B>	0
<0x0C>	0
<0x0D>	0
<0x0E>	0
<0x0F>	0
<0x10>	0
<0x11>	0
<0x12>	0
<0x13>	0
<0x14>	0
<0x15>	0
<0x16>	0
<0x17>	0
<0x18>	0
<0x19>	0
<0x1A>	0
<0x1B>	0
<0x1C>	0
<0x1D>	0
<0x1E>	0
<0x1F>	0
<0x20>	0
<0x21>	0
<0x22>	0
<0x23>	0
<0x24>	0
<0x25>	0
<0x26>	0
<0x27>	0
<0x28>	0
<0x29>	0
<0x2A>	0
<0x2B>	0
<0x2C>	0
<0x2D>	0
<0x2E>	0
<0x2F>	0
<0x30>	0
<0x31>	0
<0x32>	0
<0x33>	0
<0x34>	0
<0x35>	0
<0x36>	0
<0x37>	0
<0x38>	0
<0x39>	0
<0x3A>	0
<0x3B>	0
<0x3C>	0
<0x3D>	0
<0x3E>	0
<0x3F>	0
<0x40>	0
<0x41>	0
<0x42>	0
<0x43>	0
<0x44>	0
<0x45>	0
<0x46>	0
<0x47>	0
<0x48>	0
<0x49>	0
<0x4A>	0
<0x4B>	0
<0x4C>	0
<0x4D>	0
<0x4E>	0
<0x4F>	0
<0x50>	0
<0x51>	0
<0x52>	0
<0x53>	0
<0x54>	0
<0x55>	0
<0x56>	0
<0x57>	0
<0x58>	0
<0x59>	0
<0x5A>	0
<0x5B>	0
<0x5C>	0
<0x5D>	0
<0x5E>	0
<0x5F>	0
<0x60>	0
<0x61>	0
<0x62>	0
<0x63>	0
<0x64>	0
<0x65>	0
<0x66>	0
<0x67>	0
<0x68>	0
<0x69>	0
<0x6A>	0
<0x6B>	0
<0x6C>	0
<0x6D>	0
<0x6E>	0
<0x6F>	0
<0x70>	0
<0x71>	0
<0x72>	0
<0x73>	0
<0x74>	0
<0x75>	0
<0x76>	0
<0x77>	0
<0x78>	0
<0x79>	0
<0x7A>	0
<0x7B>	0
<0x7C>	0
<0x7D>	0
<0x7E>	0
<0x7F>	0
<0x80>	0
<0x81>	0
<0x82>	0
<0x83>	0
<0x84>	0
<0x85>	0
<0x86>	0
<0x87>	0
<0x88>	0
<0x89>	0
<0x8A>	0
<0x8B>	0
<0x8C>	0
<0x8D>	0
<0x8E>	0
<0x8F>	0
<0x90>	0
<0x91>	0
<0x92>	0
<0x93>	0
<0x94>	0
<0x95>	0
<0x96>	0
<0x97>	0
<0x98>	0
<0x99>	0
<0x9A>	0
<0x9B>	0
<0x9C>	0
<0x9D>	0
<0x9E>	0
<0x9F>	0
<0xA0>	0
<0xA1>	0
<0xA2>	0
<0xA3>	0
<0xA4>	0
<0xA5>	0
<0xA6>	0
<0xA7>	0
<0xA8>	0
<0xA9>	0
<0xAA>	0
<0xAB>	0
<0xAC>	0
<0xAD>	0
<0xAE>	0
<0xAF>	0
<0xB0>	0
<0xB1>	0
<0xB2>	0
<0xB3>	0
<0xB4>	0
<0xB5>	0
<0xB6>	0
<0xB7>	0
<0xB8>	0
<0xB9>	0
<0xBA>	0
<0xBB>	0
<0xBC>	0
<0xBD>	0
<0xBE>	0
<0xBF>	0
<0xC0>	0
<0xC1>	0
<0xC2>	0
<0xC3>	0
<0xC4>	0
<0xC5>	0
<0xC6>	0
<0xC7>	0
<0xC8>	0
<0xC9>	0
<0xCA>	0
<0xCB>	0
<0xCC>	0
<0xCD>	0
<0xCE>	0
<0xCF>	0
<0xD0>	0
<0xD1>	0
<0xD2>	0
<0xD3>	0
<0xD4>	0
<0xD5>	0
<0xD6>	0
<0xD7>	0
<0xD8>	0
<0xD9>	0
<0xDA>	0
<0xDB>	0
<0xDC>	0
<0xDD>	0
<0xDE>	0
<0xDF>	0
<0xE0>	0
<0xE1>	0
<0xE2>	0
<0xE3>	0
<0xE4>	0
<0xE5>	0
<0xE6>	0
<0xE7>	0
<0xE8>	0
<0xE9>	0
<0xEA>	0
<0xEB>	0
<0xEC>	0
<0xED>	0
<0xEE>	0
<0xEF>	0
<0xF0>	0
<0xF1>	0
<0xF2>	0
<0xF3>	0
<0xF4>	0
<0xF5>	0
<0xF6>	0
<0xF7>	0
<0xF8>	0
<0xF9>	0
<0xFA>	0
<0xFB>	0
<0xFC>	0
<0xFD>	0
<0xFE>	0
<0xFF>	0
o	-3.13827
▁	-3.17197
la	-3.87634
a	-3.91306
i	-3.93026
▁o	-4.02378
e	-4.12446
▁oku	-4.26685
ka	-4.32745
▁e	-4.38214
wa	-4.54013
▁oshi	-4.59194
ya	-4.61166
▁oka	-4.65466
lo	-4.70486
ma	-4.74848
na	-4.82334
▁onda	-4.858
/	-4.87201
le	-4.97058
nda	-5.00548
▁po	-5.02936
te	-5.06411
u	-5.07112
▁oma	-5.09874
li	-5.13403
po	-5.31548
ta	-5.32935
▁omu	-5.37123
ko	-5.38794
ha	-5.39625
sha	-5.43317
ye	-5.43885
ku	-5.45651
va	-5.48741
▁nawa	-5.49383
▁ee	-5.5822
tha	-5.58766
dhi	-5.58885
we	-5.59067
ni	-5.62182
he	-5.62963
▁om	-5.62977
▁otshi	-5.6429
-	-5.65002
fi	-5.684
di	-5.68857
shi	-5.69442
fa	-5.71725
go	-5.73453
▁ka	-5.74319
ndi	-5.75204
mo	-5.7801
nga	-5.78791
she	-5.8198
?	-5.83801
me	-5.84927
mbe	-5.85344
sa	-5.86622
lu	-5.86801
vi	-5.89338
ki	-5.89793
▁yoku	-5.91206
zi	-5.92751
tu	-5.93826
▁olu	-5.9542
ndo	-5.96726
.	-5.98636
mati	-5.98636
ho	-5.98891
mbo	-5.99075
▁/	-6.03586
▁uu	-6.10561
wi	-6.1197
pa	-6.13118
▁ombi	-6.14362
elo	-6.14907
,	-6.16061
g	-6.16489
nde	-6.16989
ke	-6.18801
wo	-6.21556
▁ond	-6.24052
hi	-6.2515
▁onyama	-6.2607
▁ombelela	-6.26643
hala	-6.26717
da	-6.28869
mba	-6.3012
nge	-6.31365
pi	-6.32158
ndja	-6.33249
hwa	-6.33852
ga	-6.34739
p	-6.36027
▁ko	-6.37055
kadhona	-6.37223
uka	-6.39772
thi	-6.408
▁oha	-6.43057
lya	-6.43087
▁wa	-6.43405
▁kandi	-6.45921
yo	-6.46612
kati	-6.47524
ngu	-6.48163
▁pa	-6.48338
▁onga	-6.48507
▁edhina	-6.49697
ba	-6.53582
fo	-6.54594
▁wo	-6.55542
umbo	-6.55784
ndje	-6.57919
▁omwe	-6.61137
lwa	-6.61841
▁onduda	-6.64066
yu	-6.64211
▁ondunda	-6.64361
▁in	-6.64903
▁aa	-6.65529
kwa	-6.66052
▁yomome	-6.66238
▁li	-6.66569
▁omba	-6.67332
▁lala	-6.6736
ele	-6.67611
ulu	-6.67742
fe	-6.70828
▁ongh	-6.7443
▁od	-6.75366
▁ondi	-6.75514
k	-6.77235
uku	-6.77369
be	-6.77747
vo	-6.78401
yi	-6.7866
▁i	-6.79929
do	-6.80107
ndji	-6.80424
anga	-6.80482
▁olw	-6.8049
▁ombwa	-6.80624
)	-6.80624
hoto	-6.80624
▁ne	-6.80624
▁tang	-6.80624
tekulu	-6.80881
siko	-6.81665
si	-6.81913
em	-6.82307
▁ondjala	-6.82459
ikulya	-6.83515
▁omeya	-6.83781
▁ep	-6.84158
ili	-6.84237
▁ey	-6.84759
ali	-6.85272
▁onk	-6.86029
▁eembe	-6.86273
ge	-6.87715
nya	-6.90209
nona	-6.90464
▁okwii	-6.91938
ngo	-6.92766
▁omut	-6.93412
ondo	-6.94369
▁h	-6.97193
▁ok	-6.97415
▁yo	-6.97709
x	-6.98164
▁omp	-6.98904
m	-6.99068
tuku	-6.99674
ete	-6.99825
▁osh	-6.99902
▁oo	-7.00266
ula	-7.00333
othe	-7.00624
wu	-7.00624
▁lyo	-7.00624
▁opena	-7.00625
▁popya	-7.00638
▁unene	-7.0068
▁ohema	-7.00702
▁ayi	-7.0074
fya	-7.00966
▁omagadhi	-7.01226
▁aaye	-7.01293
▁iha	-7.01298
telek	-7.01503
gali	-7.02136
▁omag	-7.02201
olo	-7.02208
pale	-7.0235
▁peni	-7.02492
▁ondja	-7.02688
▁oonda	-7.02943
▁ots	-7.03688
iko	-7.04048
▁okati	-7.04088
nyo	-7.04222
▁ondje	-7.04285
eke	-7.05321
kosha	-7.05456
▁okuli	-7.06273
▁oshu	-7.07066
gon	-7.07119
▁eh	-7.0832
ungu	-7.10141
s	-7.10235
kula	-7.10787
▁uunon	-7.11385
ona	-7.12825
▁ondu	-7.13278
elela	-7.13301
▁oshiya	-7.1335
▁ongha	-7.13448
▁m	-7.14129
fu	-7.14699
▁nga	-7.16483
eno	-7.16824
▁ete	-7.18151
▁ove	-7.19744
▁nangala	-7.20247
dila	-7.20425
omeya	-7.20714
du	-7.211
uto	-7.21344
kwii	-7.21688
mbi	-7.22469
dh	-7.22902
dja	-7.2301
r	-7.23287
unga	-7.23599
▁ondju	-7.23793
▁tate	-7.24611
wili	-7.24985
ndjo	-7.25077
ane	-7.25509
▁kopeendjila	-7.25624
'	-7.25624
patululo	-7.25625
▁omusita	-7.25628
natango	-7.25632
▁pukulul	-7.25644
gid	-7.25649
hapu	-7.25665
▁omeva	-7.25697
mane	-7.2574
loloka	-7.25972
▁shopom	-7.26056
▁olwaa	-7.26073
▁edina	-7.26115
topol	-7.26253
▁enota	-7.26294
▁ongo	-7.2665
tokelwa	-7.26821
pulul	-7.27228
▁omutekulu	-7.27415
tokel	-7.27587
ra	-7.27631
▁mwen	-7.27679
hongo	-7.27915
▁ofu	-7.27954
▁eenya	-7.28409
▁ofe	-7.29511
▁oshifi	-7.29607
▁ombu	-7.29694
uta	-7.29835
▁oshithi	-7.30149
▁okambi	-7.30464
▁ongu	-7.3081
▁eenda	-7.31068
opa	-7.32434
▁ndil	-7.325
▁ong	-7.3315
vul	-7.33455
▁ombo	-7.33533
▁eku	-7.34086
iki	-7.34739
ithi	-7.35821
om	-7.36432
▁lya	-7.36733
enya	-7.36882
▁ye	-7.37318
▁odi	-7.37906
apo	-7.37948
▁okav	-7.38442
▁kala	-7.39013
▁eenk	-7.39271
▁g	-7.40781
▁ondh	-7.40904
▁u	-7.40932
▁oshiputu	-7.41739
▁os	-7.41898
▁eeng	-7.41912
pang	-7.41926
▁ongaa	-7.42004
eni	-7.42731
uhala	-7.43473
opi	-7.44094
ana	-7.443
osho	-7.44593
▁ku	-7.45982
▁ogh	-7.46098
▁shi	-7.46723
ngh	-7.47594
▁ame	-7.47599
vel	-7.47626
▁olyo	-7.47705
▁een	-7.48712
hela	-7.49091
ongo	-7.4911
▁pe	-7.4984
lilo	-7.50939
mbele	-7.51062
ukwa	-7.51596
y	-7.51879
▁ont	-7.5202
▁oshing	-7.5222
ts	-7.53654
▁taka	-7.53914
kana	-7.53927
(	-7.53981
▁lo	-7.54031
▁iikul	-7.54355
ongalo	-7.54759
shu	-7.55608
▁odh	-7.55755
mwameme	-7.56205
lelo	-7.56883
dji	-7.57315
▁omwaa	-7.57327
ing	-7.57697
umbu	-7.58601
lala	-7.58626
▁gw	-7.58677
tshi	-7.58801
nene	-7.58858
mwaina	-7.58868
kunu	-7.58957
enye	-7.58957
iti	-7.58957
tho	-7.58957
tumbul	-7.58957
▁lye	-7.58957
▁omalovu	-7.58957
▁mumwameme	-7.58958
▁gwiinima	-7.58958
▁oshikundu	-7.58962
▁ahawe	-7.58965
▁mombi	-7.58985
siikil	-7.59
▁okukofa	-7.59005
▁uukolele	-7.59017
▁evina	-7.59019
▁omumwaameme	-7.59058
▁etama	-7.59079
▁otshaa	-7.59095
▁yongo	-7.59184
▁takamitha	-7.59206
pungu	-7.59255
▁goku	-7.59345
▁ombele	-7.59379
itaal	-7.59408
▁oshaa	-7.59473
▁omumwameme	-7.59511
▁omulilo	-7.59611
▁omupang	-7.59613
mbamba	-7.59807
▁ounon	-7.59832
▁mangul	-7.60114
▁oshapi	-7.60137
▁oonk	-7.60443
▁ongulo	-7.60506
ilonga	-7.60569
lunga	-7.60865
▁ehwi	-7.60917
tse	-7.61235
▁yokwi	-7.61285
xwa	-7.61337
engo	-7.6149
▁omwameme	-7.61586
upul	-7.61643
v	-7.61889
▁gamen	-7.62093
▁shii	-7.62344
enzi	-7.62345
▁omufi	-7.6235
▁meme	-7.62539
▁ohu	-7.62826
▁ooka	-7.63302
▁ontu	-7.63417
▁okulila	-7.63673
endu	-7.63787
▁onyo	-7.63788
▁olo	-7.6389
▁(	-7.64191
▁omaye	-7.64326
▁eem	-7.64365
▁end	-7.64799
▁esi	-7.64894
mbulu	-7.65503
▁odila	-7.66105
hand	-7.66903
▁ya	-7.67005
▁ongalo	-7.67693
okute	-7.68018
▁oshimbo	-7.68268
lele	-7.68281
ove	-7.69015
▁eshi	-7.69326
▁ombii	-7.69416
hilo	-7.69761
▁otshik	-7.69767
d	-7.70186
▁vo	-7.70337
iilya	-7.70493
▁eengh	-7.70628
▁otsh	-7.71
▁eva	-7.71655
▁amen	-7.72336
▁amush	-7.73185
▁ompa	-7.73975
▁en	-7.74487
▁okuku	-7.74492
▁eee	-7.7499
▁oombe	-7.7515
ndu	-7.7646
▁owe	-7.76551
ulo	-7.77185
iyog	-7.78247
▁okwi	-7.79011
▁oye	-7.79437
sh	-7.79833
▁oong	-7.79866
iny	-7.80246
vala	-7.81197
ndolo	-7.81253
▁kom	-7.82335
wii	-7.82947
yapu	-7.83473
oko	-7.83779
omwa	-7.84976
nhu	-7.85687
▁ees	-7.86694
mwa	-7.87901
▁na	-7.88038
▁oomb	-7.88686
ale	-7.88713
▁oshikul	-7.90018
▁omwii	-7.90218
▁enda	-7.90588
▁omako	-7.90803
▁wau	-7.90855
▁eke	-7.90898
▁omakolo	-7.93746
muku	-7.94632
▁amu	-7.94665
meme	-7.94998
▁edi	-7.95897
tsh	-7.96213
▁oly	-7.96607
h	-7.98386
mwe	-8.00562
▁iil	-8.00988
▁okamb	-8.01107
onk	-8.01954
tok	-8.02072
peni	-8.02914
▁otshuu	-8.0348
kule	-8.03499
ndokotola	-8.03503
amush	-8.03993
nangala	-8.04091
gamen	-8.04383
ini	-8.04391
yomome	-8.04563
▁oshim	-8.05194
▁eko	-8.05346
mutekulu	-8.06843
folok	-8.06974
▁oond	-8.07378
hima	-8.07445
shokolo	-8.07464
sindo	-8.07502
nota	-8.07538
▁oshipu	-8.07766
▁oshitu	-8.0791
▁oh	-8.07934
uusi	-8.08156
▁otji	-8.08405
ilong	-8.08613
▁mokambi	-8.08727
elye	-8.08957
kono	-8.08957
mboloto	-8.08957
▁eembut	-8.08957
▁eidhidhim	-8.08957
▁iitungith	-8.08957
▁nye	-8.08957
▁okandju	-8.08957
▁ominwe	-8.08957
▁omukulunhu	-8.08957
▁omulong	-8.08957
▁omupresi	-8.08957
▁onje	-8.08957
▁onzi	-8.08957
▁onzo	-8.08957
▁otombo	-8.08957
▁ozali	-8.08957
▁komahinagwa	-8.08957
ilyaalyaka	-8.08958
▁ookuume	-8.08958
▁aamwayina	-8.08959
▁osuuka	-8.0896
▁ongholoko	-8.0896
▁eehu	-8.08962
▁okushongo	-8.08962
namun	-8.08962
▁nangale	-8.08963
▁iikun	-8.08967
▁geengo	-8.08969
f	-8.39273
z	-10.3187
j	-10.3188
b	-10.3189
w	-10.319
t	-10.3191
l	-10.3192
n	-10.3193
